1111110101111100
1111110111111011
1111110101010101
1111111001000111
1111111110110001
1111111001100100
1111110101000000
1111111111011001
0000000010111111
0000000001011010
1111111111111000
0000000000101111
0000000101001110
0000001000101010
1111111111101101
1111111110010111
0000000001001000
1111111111110000
0000000010001111
0000000000000100
1111111001111101
1111111101000011
1111111000111000
1111111000100100
1111111000000010
1111111011010000
1111110101010100
1111110110011101
1111110100111010
1111111101010011
1111111010101101
1111110110110011
1111110100011010
0000000011111001
0000000110110111
1111111001100101
0000000000001010
1111111101001100
0000000001010011
0000000000000111
0000000100010101
0000000110010110
0000000111010001
0000000100011000
0000000001010000
0000000100000001
0000010010101011
0000000100101110
0000000111000000
0000001000110101
0000000110101101
0000000100110010
0000000100000001
0000001100011100
0000000101111111
0000001101111110
0000000101110010
1111111110011000
1111111000000110
1111111000101110
0000001001001000
1111110111110100
1111111001101110
1111111110011010
0000000000110100
0000000100001011
1111111100100000
1111111001010001
0000000000111000
1111110111100011
1111111100010110
1111111111001011
1111110100100001
1111111101011000
1111111010001110
0000000100100100
1111110100101101
1111110111000011
1111110001001100
1111110111100100
1111110110101001
1111111011010001
1111111101101111
1111110110100000
1111111110000100
1111111101001010
0000000011000011
0000000110000110
1111111011000010
0000000011110100
0000000100010000
1111111101110111
1111111101011011
0000000001000100
0000000100010001
0000000101110110
1111111111001111
0000000011000001
1111111110000100
0000001100111011
0000001101001101
0000001000000100
0000010001000111
0000000011100001
0000000111011111
0000000110001000
0000000111101001
0000000101101000
0000001000111110
0000001100001110
0000010010100010
0000010101000010
0000000110001100
1111111101010110
1111111010111101
1111111001101100
1111111110000000
1111111101011001
1111111011101011
0000000000101110
1111111111001111
0000000001010110
1111111110010011
1111111000100111
0000000000100001
1111110011011111
0000000010000100
1111111011001001
1111111000010011
1111111110000110
1111111110011000
1111111100111110
1111111010011111
1111111011110111
1111111011001111
1111110110000010
1111111111001110
1111111110000100
0000000011110100
1111111100011110
0000000001011010
1111111100110001
0000000110010010
0000000100110001
1111111011111100
0000001001000000
1111111111011011
1111111100111010
0000000100011111
1111111101010100
0000000010101100
0000000000000010
1111111111111101
1111111111100111
1111111101010101
1111111111111001
0000001000101111
0000001011011011
0000000101010110
1111111010011111
0000001010111001
0000000000110101
0000000001011010
0000000100000000
0000000100001001
0000001000110001
0000001100010011
0000000011110000
1111101101100101
0000000001001110
1111111111001101
1111101101110111
0000000000011111
1111111010100111
0000010000101100
0000000000111100
0000001000111011
0000010000111011
0000000101001011
1111110101111011
0000000101110100
1111111110110111
0000000001011101
1111110000111100
1111111111111011
0000000101011101
1111110110100101
1111110000110100
1111111101100111
1111111100011110
0000000010111110
0000000011001001
1111100111101101
0000000111000100
1111111011100101
0000010000011110
0000010000001111
1111101110101100
1111111111100000
0000000010010110
1111100101011010
1111101011110001
0000001001000111
1111111000011111
0000010011111010
0000000000001001
0000000010101011
0000001101101001
0000011001011100
0000000010001101
1111111110011000
1111111000111011
0000000011000010
1111111111101010
1111101010110000
0000010000110110
1111111001110011
1111111001001101
0000000001100010
1111111110001111
1111101101110111
1111110000001010
1111101100100000
0000011101101100
0000001000100110
0000001110000000
0000000111100100
1111111110001010
0000000101010111
0000000001100111
0000000001111100
0000001001101001
1111101011101001
1111110101100100
1111111001000011
0000000100101001
1111111101101110
1111110110111000
0000001000111101
1111111100000111
0000000011010111
1111111111010111
1111111010111011
1111101110011110
1111111010101111
1111111011000110
1111111011101111
1111101011101111
0000010100001000
0000000010010110
0000001110011110
0000011001110100
0000001000001100
0000011001110001
0000001110110011
0000010011110010
1111111111110010
0000001001000001
0000001001010111
0000000000000110
0000000011101100
0000000011100101
1111111111000111
0000000011110011
1111111010101000
1111111010111110
0000000110111001
1111111110100100
0000010000100011
1111110101010110
1111101100001000
1111110111110001
1111111000100100
1111111010000100
1111111010001000
1111111100100100
1111110000011101
1111101100111101
1111110001000100
1111100101111111
1111101011011010
1111110111001111
1111110101111010
1111101101001010
1111100111001001
1111101011001110
1111101001110100
1111101010010011
1111110011111111
0000001001110001
1111111100010100
1111111011010001
1111111101101011
1111110100110100
0000000000101010
1111111010110001
0000010100111101
0000000010111001
0000010101000001
0000010010010110
0000000111111100
0000000111110010
0000001100100100
0000000101111101
1111111001111010
0000000100010101
0000000111110001
1111111011111001
0000000010100010
1111111001110001
1111111000101110
1111111101001000
0000001101010000
0000000111100100
0000010101110001
0000001110011001
0000001100111111
0000001010011011
0000001000000110
1111111011100101
0000000111001100
0000000010101000
0000000100111001
1111111100111010
0000000110001111
0000001000111001
1111110110100011
1111111101000000
0000010000000101
0000001010101000
0000000110100100
0000001011110100
0000001011111100
0000000011010101
0000000001110001
0000000010010110
0000011110001011
0000010101000000
0000010001010011
0000011001001001
0000010010011100
0000010101101001
0000010110011101
0000011010101101
0000000000001000
1111110110100000
1111101101010110
0000000000010111
1111110100110101
1111110101000100
1111111010001000
1111110001111100
1111111000010100
1111110101011111
1111101110101101
1111110011110101
1111111110110010
1111111111111010
1111101110011001
1111111011110101
0000000001111100
0000000001110101
1111111010111100
0000000011001011
1111111011111011
0000000001110111
0000001010011111
0000000000011001
1111111101111100
1111111100111010
1111111010010001
1111110011001101
1111111000001010
1111111000110000
0000000001001101
1111111111010010
1111111001010110
1111111111010000
0000000111010011
0000000010001101
1111111001110100
0000000101101100
1111111001101111
0000000000000010
1111110101111101
1111110010111000
1111111110010001
1111111011101010
0000000101000100
0000001000101110
0000000010110001
0000000101001011
1111111010000011
1111110110010000
1111111011111101
1111110100110101
1111111101110000
1111111011011110
1111110111001100
1111111001101001
0000000000100111
1111111011000110
1111111010001100
1111111011011101
1111111001110000
0000000011110101
1111111011101110
0000000000100111
1111110110100110
0000000000000110
1111111100010000
0000000000011010
1111111010010100
1111110101110001
1111110111111111
1111111110001010
1111111000010001
1111110101111010
1111110011101101
1111110000010111
1111110011101101
1111110111101010
1111111010010001
1111110100101100
1111111011000110
1111111010001001
1111111111001001
1111110101101101
1111111101101010
0000000000011101
1111111111011001
0000000011111001
0000000001101111
0000000011010111
1111111011010101
0000000101110010
0000000001111100
0000000100110011
0000001001101010
0000000010101100
0000000001111010
0000001001010110
0000000011011011
0000000011000000
0000000110011110
0000010000000101
0000001001111110
0000010001101001
0000010000111011
1111110110111011
0000000100010001
1111111000111110
1111101101101100
1111110110011110
0000011010110110
1111111001111000
0000000010001111
0000000111101011
0000010100101111
1111111111001010
0000001110011101
1111111110110111
1111110111100011
1111111011110001
0000001011010011
0000000010010000
1111110011101010
1111111000111110
1111111100001000
0000000010110010
1111110110010000
1111111100000010
1111100011101111
0000000001010100
0000001110010110
1111111010110100
0000010100101010
1111111010110111
0000001011100100
0000000000000100
0000000000010010
1111111100100010
1111111110011111
1111111110010101
1111110100100000
1111101001011000
1111110100101011
1111110010100011
0000001110100011
0000001000101110
0000000001010111
0000010011010111
0000010111111000
0000000100111001
0000001110001111
1111100110100000
0000010001001000
1111110110101100
0000001011000111
1111110011100001
1111111000001111
0000010101011110
1111101101110010
1111111011001111
0000010101001010
1111100000111110
0000000010010010
0000000101101111
0000000111011000
0000001000010111
1111111000101010
1111111000010110
1111111000100101
0000000111010111
0000001000101101
1111111101010001
0000000101001000
1111111011001000
0000000101101110
1111111110001111
1111111011010110
1111111111000000
0000000101000101
1111111111110111
0000001000000010
1111110110111100
1111111000000001
0000000101100110
0000000110010000
0000010100000010
1111110111000010
1111111111101011
0000010011000000
1111110110001110
0000010011111111
0000010000110011
1111101001011001
1111111011101001
1111110101000011
0000000000011100
0000000011011011
1111110010001110
1111110010000111
0000000100010001
1111111100100101
1111111000011001
1111111010001111
1111110010010011
0000001010101011
0000010101101111
1111110100010111
0000000010000001
0000000010000101
1111111011110001
1111110010000100
0000001111100011
0000100100100010
0000001011001000
1111111101111111
0000000100001010
0000000000010110
1111100101110001
1111110010111110
0000011100100011
0000001001110110
0000000010101001
1111101111001100
0000000111010010
0000001000000110
1111110101110101
1111101010011011
0000001010110100
0000001110110111
0000001101010000
1111110101001100
1111111101100000
0000000010000011
1111100010100001
0000010000011101
0000000001011100
1111110101101101
0000000010111111
1111111001101010
0000000001110000
0000001000001010
0000000010010111
1111111001011011
1111111111000011
0000000110111000
0000010001101000
1111110110000000
1111100111110001
0000000100100001
0000010011000100
0000001100010000
1111110011001000
1111111011100100
0000001101101000
0000000000010111
1111101101111000
1111101101100110
1111110001011011
0000001001101111
1111111000010010
0000000011100010
0000000011011101
0000001101101010
1111111101110011
1111111001101110
0000000100100010
0000010010011100
1111110011001100
1111110110001010
1111111000100101
1111110110011101
0000001010010000
0000010000001001
0000001101001111
0000001101100010
0000001110000101
0000010000000010
0000010010000000
0000010100101001
0000011010011010
1111110011001011
1111111000100000
1111101110111000
1111111001010001
1111110001110111
1111110010111011
1111101111011101
1111110001111111
1111110011101011
1111110101111111
1111110111111001
1111110101001000
1111111100000011
1111111010111000
1111101110001001
1111111101101100
1111111010010000
0000000000000110
0000000001100110
0000000001100000
0000000001011011
1111111100111000
0000001011101101
0000000101011101
1111111101010111
1111111001101000
1111111000111101
1111110110001001
0000000001011110
1111111000011000
0000000000110000
0000000101110000
1111111000101101
0000000110100001
0000000000001011
0000000000111001
1111111011010101
0000000001001001
1111111101011111
0000000001101101
1111111101111111
1111111001111101
0000000100110000
0000001000101100
0000000101110110
0000000100110000
0000000000011101
0000000110101101
1111111111110101
0000000101011000
0000000101001001
1111111110011000
0000000100000011
0000000000011011
1111111110101001
0000000010011000
1111111100010001
0000000001011010
0000000100111111
0000000010000000
0000000001111101
0000000010011110
0000000011001110
0000000110111011
1111111111000101
0000000001011011
0000000010010010
0000000010110010
1111111111111101
0000000011010011
0000000110001011
0000001000000000
0000000000011011
0000000000000001
1111111111001011
1111111010110011
0000001000011111
0000000010111001
0000000001100110
1111111101011100
1111111101001000
0000000000000111
0000000100010100
1111111100000001
1111111111100110
0000000110000000
1111111100101010
0000000000000010
0000000000010110
1111111100100001
0000000011011011
1111111110010101
1111111000111011
1111110100011111
1111111101100010
1111111101001011
1111111001000011
1111111011000101
1111111011000000
0000000010010001
1111110111111110
1111110011111011
1111110111101100
1111111100010000
1111101011101010
0000000100101100
1111111010100001
1111110101110001
1111110100101001
0000100011001101
1111111011111001
1111111000011010
1111111111011110
0000010101100001
0000000100110010
0000001100010010
1111101000001100
1111100110111011
1111111111010101
0000001110000101
1111111011110010
0000001000001110
1111101011111000
0000000111010011
0000000000100011
1111111101001100
0000001010011000
1111110100111011
1111101101011001
1111111001100110
1111110111101101
1111111110010010
0000010011011100
0000000100100100
1111111111001100
0000010100100110
1111110010001111
1111111111010001
1111111100000010
0000000000000100
1111101101001010
1111111100101101
0000001011011001
1111100100000101
1111111001011011
0000001000100011
0000000111011100
0000000111011001
1111111010011110
1111111111010100
0000001001001010
0000001010110011
1111111011010110
0000000011101000
0000010100101101
0000011001110000
1111101101101101
0000001001001010
1111110001100110
1111101011011010
1111101010011100
1111111111100001
1111110010011000
1111101110100010
1111011111111101
1111101111011111
1111100111000110
1111110010000001
1111110010001110
0000000000111110
1111110110000010
1111110101110000
1111110101110000
1111110001101101
1111111001110110
1111111001110000
0000010100011011
0000001000000101
0000001000001111
0000001110010000
0000000011100111
0000001010001101
0000010100100000
0000001110111101
1111111010010111
0000000111110000
0000000100001000
0000000001010001
0000000011001000
1111110001001100
1111110000010011
1111111110101000
0000010010100011
0000001110010101
0000010110001010
0000001110001001
0000010010111010
0000001111100100
0000000111100001
0000000100110010
1111111110011110
1111110100100011
0000001110010000
1111111010100111
0000000000011110
0000000011000011
1111111101110100
0000000100001001
0000001000110110
0000001110110111
1111111100111000
0000010101001111
0000001100000101
0000001001000110
1111111011111101
0000000111010010
0000000010011101
0000000010111110
0000000101000111
1111111111101011
1111111110011110
0000000010101101
1111111111001011
0000000010111111
1111111110101110
0000000011110111
0000000010110101
0000000000100101
1111111101111011
0000000010010000
0000000010100110
0000000001111001
1111111100101011
0000000101111100
0000000001110111
0000000101100110
1111111111001101
0000000000110011
0000000110001000
0000001000000101
1111111101101111
1111111110110011
1111111100111001
1111111000000000
0000000011100001
0000000010011000
0000000010110111
1111111101001010
1111111110011110
1111111001000110
0000000111111011
1111110110010101
0000000010000010
0000000101001100
0000000001011111
1111111101100011
1111111011100101
0000000000000001
1111111111101111
1111111000111100
1111111010110110
1111110110001111
1111111111000101
0000000001000011
1111110100011111
1111111001000011
1111111010000101
1111111111101111
1111111000000011
1111110110000000
1111110110100110
1111111001111111
1111111010011011
1111111101001101
1111111110110010
1111111100011110
1111111011001000
0000000000110001
1111111010010011
1111111110001101
1111111111111001
1111111100010011
0000000101111100
1111111111001011
1111111101011000
0000000010000011
0000000110011000
0000000101101000
0000000000011000
0000000000010011
0000000110000110
0000000011000111
0000000110101100
0000000100001101
0000000011001110
1111111101010000
0000000011100100
1111111110101010
1111111001101001
1111111100011000
0000000111000111
0000000101010000
1111111100111011
1111111100101100
1111111100110111
0000000001110001
1111111111000101
1111111110010110
1111111011011110
0000000110010011
1111111101001011
0000000001001100
1111111111100101
0000000001111110
0000000010000001
0000000001101111
1111111100111101
1111111110010001
1111111100100110
1111111000100001
1111111001011010
1111111000011100
1111111101010110
1111111010011111
1111110110001101
1111110101001011
1111111100001010
1111110111101101
0000000101100001
0000000011000010
1111111110101100
0000000010001100
1111110100011110
1111110011010100
0000000101100101
0000000000001100
0000000110011100
0000001100111100
0000010100001111
0000001000010011
0000001001100011
0000000101010011
0000001110000100
0000001101101001
1111111111100001
1111110111010101
1111111010110110
1111111110010100
1111111011100000
1111111110010001
1111111001010000
1111110001010100
1111110001100000
0000000101001110
0000000101110010
0000000000001010
1111110111101000
0000000010110011
0000000101101000
1111111111010111
1111110111100111
1111110101010111
1111111111101001
1111101111100101
1111110010000100
1111110110001101
1111111111000000
1111111001011001
1111111000100011
0000000110101111
1111110111101110
1111111001001100
0000000011100000
0000000111101101
0000001001000111
1111110101000110
1111111001001110
1111101110100010
1111111110100010
1111111000011110
1111111101111000
1111110111000010
1111111101000111
1111101111111110
0000000010010010
0000000011111001
0000001000100011
1111111100111111
0000000100101100
0000001110001110
0000000100110110
0000000100010110
1111111110110100
1111110011000010
1111111110000001
0000000101001000
0000000010111111
0000001000001010
0000000000100101
1111111110010100
0000000110100111
0000000001111111
0000000011011111
1111111010111100
0000001010001010
0000000100110101
0000001101111101
0000000111010111
0000001010111011
0000001001010110
0000000110000000
1111111110110100
0000001010111100
0000000111100101
1111111110111100
0000000110010111
0000001110101010
0000000101011001
1111111110110110
0000000110111111
0000000000001110
0000001001101010
0000000001110111
0000000000010111
1111110110100101
1111111010111011
1111111100110111
1111110101110011
1111111110100011
1111110101101110
1111101101010010
1111110111010100
1111111101111101
0000000001001110
1111110111011010
1111111010101100
1111111010011110
1111110111111110
1111111100010010
1111110011111100
1111110100000010
1111111001000101
0000001011000000
1111111011011111
0000001010010000
1111110011000001
1111111010011010
1111111011101111
0000000111101010
0000001001000111
1111110110011101
1111111101000100
0000000010000010
0000001010001010
1111111010010010
1111111010111011
0000000000101011
0000000100101001
1111111110100010
0000000010010110
0000000001011100
0000001100011110
1111111100000101
1111110100001100
0000000110100101
0000010110111111
1111111101001100
1111101001100101
1111101000011101
0000001010000000
1111111100100000
1111111001000011
1111101100101011
1111100110001011
0000001010001101
0000010110000001
0000000010011100
0000100110001000
0000001011001100
0000011100011100
1111110011011000
1111111111011001
0000000000100101
1111110010001100
1111111111010110
1111101100000111
0000000001111111
0000001001101101
0000000011011010
0000000000010010
1111111010111101
1111110100111101
0000100000100110
0000001010011010
1111111110100011
1111101110100110
0000010110011001
0000001111101100
1111111010100000
1111101101001001
0000010010111010
0000001010111010
0000000101100010
1111111101001000
1111111001011000
1111110111010010
1111101101010110
1111111011010010
1111101001110100
0000000111011011
0000000001011010
0000001101011000
0000000110000001
0000011101001101
0000010010001010
0000001000011001
1111111100100110
1111110011010111
1111110010010010
1111111100001111
0000000101000101
1111110000001000
0000000011010010
1111111100101000
1111110110011001
0000001100011110
0000000111100011
0000000001010111
1111111000011101
1111101001011111
1111110110111001
1111110110110111
1111110010001011
1111101110110111
1111110001100111
1111110010011100
0000001101111100
0000100110001001
1111111001110011
0000011101001000
0000010110001000
0000010111111100
1111111111100101
1111100011110111
1111111110111000
0000001100000110
0000000010101110
0000001101001010
0000001010101100
1111111111001010
1111101101111100
1111101011010001
0000001000000110
0000001111111111
0000000101000101
0000000111011101
1111110100101001
1111101011011100
1111110011010101
0000001011000110
0000001010001101
1111111111100100
0000001011101101
0000000001011011
0000001100111100
1111110001011011
0000000011011110
0000000101101111
0000000001010111
1111110111111001
1111110110111000
1111110011110011
1111111111001000
0000000010001101
1111111101101011
0000000110001101
1111111010101110
0000001010011001
1111110100001000
0000000110011101
1111111100000110
1111111011110010
0000000100101010
0000001011000001
0000011010001101
1111111110011110
0000000110101011
0000000001101111
0000000110110111
0000010000100010
0000000001101001
1111101110010011
0000001100000111
0000010100000010
0000001111110110
1111111000111101
0000000110010000
1111101111110100
1111111001001101
0000001011000111
1111110010111110
0000000000100110
1111110000001001
0000001101101000
1111101111100101
0000001110110101
1111111000010010
1111110111110101
1111111100111101
1111111010111000
1111111110111001
1111111001100010
1111111010000110
1111111111111000
1111111000111100
1111111000110000
0000000101100101
0000000101100110
0000001000111110
0000000101011011
0000000110101001
0000001100010101
0000001100111010
0000000111110010
0000000001011010
0000001000000011
1111111001100100
0000000100101011
0000000010101010
0000000010110101
0000000010100101
0000000110111011
0000000001101001
1111111110100010
1111111101111111
1111111101000001
0000000000000000
0000000011010010
1111111011101001
0000000010010011
1111111010000010
1111111010000010
0000000100100110
1111111111100011
1111110111100000
0000000101010110
0000000100110111
0000000000100001
0000000110000011
0000000011100001
0000000101100110
0000000000010011
1111111111111001
1111111110000010
1111111110010000
1111111100010110
1111111000101001
1111110111011101
1111110111111110
1111110111100111
1111111011100100
1111111011000100
1111111001111110
1111110110110110
1111101010011000
1111101111010110
1111110001101100
1111110111000111
1111101101011001
1111101011000000
1111101111101010
1111101001001110
0000001001111101
0000001001011011
0000001100010000
0000000110100110
0000001011001101
0000000100100100
0000001101000010
0000000110101111
0000001010000110
0000000111010100
0000000001111100
0000000011001100
0000000100010001
0000000100001100
1111111110010111
0000000010010011
1111111000001110
0000000100111001
0000000010010011
1111111100001110
1111111010111001
1111111010011111
0000000000000000
1111111110101100
1111111101010010
0000000000110000
0000001000011010
0000000110001101
1111111100110110
1111111111010010
0000000001110110
1111111100011101
0000000100001000
0000000001100011
1111111010100100
1111111100100000
0000000010110110
0000001010000110
0000000010101011
1111111011110001
1111111101000010
1111110110111011
1111111010111000
1111111011001101
1111111101001011
1111111100001111
1111111011000101
1111110011001001
0000000010011011
1111111011010111
0000001011100110
0000000100100110
0000000011101100
0000000110010101
0000000011101111
1111111100000100
0000000010110011
1111111101110000
0000000100111111
0000000001110111
1111111101010101
0000001010001101
1111111000110110
1111111100100001
0000000110010110
0000001001110000
0000001000000111
0000000101110101
0000001001000110
0000000000011001
0000001111111011
0000000100010000
0000001000110110
0000000011010011
0000010001000111
0000001000101001
0000001011000111
0000001000100110
1111110111111100
1111111111000100
0000001011010100
1111111110111100
0000000101111000
1111111100101001
0000001011100111
0000001000110010
1111111100001101
0000000110000011
1111111011011001
1111111000111000
1111111000011110
1111110100011001
1111111010100100
1111110011001010
1111110111101011
1111111010101001
0000000000101110
1111110111000001
1111110010011100
1111111000011110
1111111001011100
1111111010000100
0000000010011010
0000000000111001
1111110101001100
1111111100110100
1111111101011001
1111111001111110
1111111011001011
1111111011011001
1111111110100010
1111110000100000
1111111110100101
0000000111100111
0000000000110101
0000000010100011
1111111111001001
0000001011000001
0000000001111111
0000001110110100
0000001110011100
1111111110011001
1111111111110110
0000000110001010
0000000000011010
0000001001001101
1111111111101110
0000000110001110
1111110000110110
1111111100010001
1111111001000110
1111101110111000
1111111010101011
1111110101110101
1111100111000000
1111101111110111
1111110101100011
0000000001010000
0000000000101000
1111111110110100
0000000101100001
0000000010011001
1111111101000110
0000001101100101
0000000000101001
0000000101111011
0000000011001100
0000000000001000
1111111011110010
0000000000110001
0000010110001011
0000000100001101
0000001011001011
0000011000001101
0000001100011101
0000001010111010
0000000111010000
0000010010111000
0000010010100111
0000011101101100
0000000001100010
1111111110110001
0000000000001011
1111111010110110
1111111001110110
0000000110010001
1111111010001100
0000000011100011
0000000000011000
1111111100010011
1111111100011101
1111111010111111
1111111100000110
1111110110000000
1111111000001111
1111111000001001
0000000001000111
1111111010101111
0000000000000001
1111111100000000
1111111110110111
0000000001011111
0000000000101011
1111111001101101
0000000010001100
0000000010010011
0000000101111110
0000000011011111
0000000011000100
1111111110101111
0000001001001001
0000000011000000
0000000101000010
0000000101100010
0000000000111010
0000000011101101
0000000000100111
1111111111110111
0000000100110100
1111111011010010
0000000110101011
1111111110101101
1111111111101101
0000000100110111
0000000101110100
0000000110101111
0000000001111101
1111111011110001
0000001100101010
0000000100110101
0000000011100010
0000000010111011
0000000010100000
0000000100111101
0000000101101001
0000000101010011
1111101101011101
1111110110111100
1111110101111101
1111111000111010
1111111010010101
0000000010000000
1111111001010011
1111110000000100
0000000010110010
0000000100010001
1111111001001010
1111110111001000
1111111010100001
0000001001010101
0000000110000011
0000000111001010
1111111111101110
0000000111100010
0000001011110000
0000000101010001
0000000001110011
0000000001110001
0000010011110110
0000000011011010
1111110010111110
1111101000110010
1111110011011010
1111110001000010
1111110000010111
1111110011010110
1111101011001101
1111100010110111
1111111110101101
0000001001100100
1111111101111010
1111111000110111
1111111001011011
1111111001011000
0000000100010000
0000000011000010
0000001001010011
1111110011110101
1111110100110001
0000000100111111
0000000010101010
0000000010101001
0000001100111110
0000001011110100
0000001010000100
0000010101111111
0000010101110010
0000001001101100
0000001100000001
0000001011001010
0000010101010010
0000011001000010
1111111100111101
1111111101010111
1111111101010111
1111111001110010
1111111101011101
1111111110100010
1111111101111001
1111110011000011
0000000110101111
0000000110110011
1111111111101110
1111111011110011
0000000000100011
0000001011110100
0000000001111111
0000001100010101
0000000110111111
0000000011111000
0000000000110100
0000001000000001
1111111111100011
0000000110111000
1111111111010100
0000001000100011
1111110110011101
1111111011111110
1111110101101000
1111110110100001
1111111011110110
1111110100101000
1111110000001100
1111110001111111
1111111001100011
1111111111010101
0000000000111111
1111111100011111
0000000101011010
0000000000100111
0000001000011000
0000001001110111
0000000010100000
0000000010011001
0000000010000111
0000000010110100
0000000000011110
1111111101001110
0000010001001011
0000001000011110
0000001010100011
0000010100100101
0000000111111110
0000001000001000
0000001011011101
0000010010010110
0000010010000100
0000011000010011
0000001000100110
0000101100000000
0000001100111010
1111111110010101
1111101111110101
0000000010101110
1111110110000011
1111101000010011
0000001000111100
1111111101111110
1111101011011111
1111110011111000
1111101110000010
1111110011111010
0000000010000001
1111111101000110
1111110010001101
1111111111110011
0000000111001000
1111111010100000
0000010000110100
0000001110100000
0000010100110000
0000000111010011
0000001001110100
1111100101000010
1111101000110011
0000000101011011
1111110111101001
1111101110100111
1111111011100000
1111101011101000
0000010110000101
0000010001011110
1111101111100110
1111111001011001
0000001100000000
1111101110001010
0000001011111010
0000000100010101
0000010101010010
0000000100011000
1111110010110101
1111110111010100
0000000000111100
0000000100101111
1111110001001101
0000000100001101
1111110111111111
1111111101011011
1111101111101011
1111101101000111
0000001101010110
1111110001000010
0000000111101001
0000100010111010
1111110110000111
1111110011000100
1111111011011010
1111111011110111
1111110011111010
1111110111111101
1111110110010011
1111110100111110
0000000011011010
0000000011111001
0000001010001111
0000001001000100
0000000101110010
0000001011010111
0000001101111111
0000000111011100
0000000100000110
0000000100001011
1111111110010100
0000000010000001
0000001000000011
1111111111111101
0000000001010111
0000001001110101
0000000101010011
0000000010100000
1111111011100010
1111111110011010
1111111110110111
0000000010111111
1111111101010011
1111111100000011
1111111011010101
0000000000101010
0000000011110101
0000000100111100
1111111001110011
0000000001001001
0000000010011101
1111111110101001
0000000001011111
0000000111100110
1111111110011101
0000000001110001
0000000000001011
0000000100010101
0000000001111011
1111110110011000
1111111000110110
1111111000101110
1111111000011110
1111111110111110
1111111100001101
0000000000110001
1111110101110001
1111110011111000
1111111111011110
1111111110111000
0000001100110011
0000001011101001
0000000010110011
0000001100010111
0000000011011010
0000000101001101
1111111001110100
1111110010100000
1111111101110110
1111111001100100
0000000010100110
1111111111111000
0000000100000100
1111111010001111
0000000000100110
0000000010111111
0000000110110001
1111111110110000
0000001100010000
0000000110110111
0000000100010000
0000000100101111
0000001101001101
1111111111101011
0000000011000101
0000000111111001
0000000111001101
0000010011001100
0000000111010000
0000001110111111
1111111101100011
0000001000000001
1111111101000010
1111111001100110
1111111111110111
0000000010011000
0000001100001000
1111111111101100
1111111100110000
1111111110011000
0000000000001110
1111111001110011
0000001010100101
1111111111111000
1111101100110101
1111111101111011
1111111100101010
1111111011101101
1111110100111100
1111111010101110
1111111101011001
1111101100101011
1111110000010010
1111110001011101
1111100111101010
1111110100000000
1111110010011010
1111111001100100
1111101011001110
1111101101010000
1111101000110011
1111101001101101
1111110100110111
1111111100101101
1111110110011011
1111101011111111
1111110110110111
1111101111011111
1111111101110000
0000000001011000
0000010100101000
0000001100010111
0000001010010001
0000010100100011
0000010010111111
0000001101001111
0000010000000001
0000000110110011
1111111110110000
0000000110100000
0000000000010100
1111111000100011
0000000011000101
1111111011100100
1111111000101101
1111110101001001
0000010111100010
0000010100101110
0000010011000001
0000010010100011
0000001110001111
0000010010010000
0000000101011000
0000000001100111
0000001000100000
1111111011001110
0000000001001011
1111111100001111
0000000100100111
0000000101100000
0000000010110111
1111111100001111
0000000110001111
0000001000100010
0000000010111001
0000010011011001
0000001000001111
0000000110110011
0000000100111000
0000001001111001
0000000101011101
1111111011100011
0000000101110100
1111110101110100
0000000010110000
1111111110110111
1111111111010110
0000000011011000
1111110101010100
1111111100010001
1111110101111000
1111111001110011
1111110100000011
1111101101100011
1111111000001111
1111101110111000
1111110111101001
1111111010101110
1111111110111011
1111110101100100
1111110111111011
1111110101101001
1111110101100000
1111110011111110
0000000110010100
1111111101011000
0000000101000101
1111111101011001
0000000001011001
1111111111010111
0000001001011011
0000000101011110
0000000010101010
0000000011001110
0000000100110000
0000000001001000
0000000011101100
1111111001110111
0000000110101000
1111111101010001
0000000011111011
0000001000000001
0000000110001111
0000000010001000
0000001011101011
0000001010001001
0000001000111111
1111110111100011
0000001111000000
0000000001010000
0000000100000000
0000000010000010
0000001100000001
0000000100110100
0000001111001111
0000000100011000
1111110110010010
0000000111110001
1111111101011011
1111111010010000
1111110101110000
1111111000100001
1111110011011111
1111101110001100
1111110010000111
1111110000111110
1111101111100111
1111110011011111
1111111011001101
1111110010000110
1111111100110101
1111111001010010
0000001010100110
0000000011001000
0000000011100111
0000001000011001
0000000000011010
0000000111100111
0000001000010011
0000001100101110
0000000001001101
1111111100011011
0000000011100011
1111111100110100
1111111100101100
0000000010110100
1111111001000110
0000000011110010
0000010110000110
0000000111100111
0000010000100001
0000001010010011
0000001001000101
0000001001001010
0000000011010010
1111111111111000
1111111101010111
1111111101101100
0000001000001010
1111111010101000
1111111001010011
1111111110111011
1111111010110110
0000000110000010
0000010001110111
0000001011101000
0000000101101111
0000001010101011
0000000101001001
0000000011011110
0000000011010000
0000001011101011
0000000010100110
1111111110001010
1111111010110110
1111111100100001
1111111001101111
1111111000100001
1111111010011110
1111111010111011
1111110110001111
1111110000010001
1111111101011000
1111110010100100
1111111001000011
1111101110111100
1111111000101111
1111101110010100
0000000001101111
1111110100001100
1111111101000101
1111111000101000
0000000010010011
0000000001110001
0000000011001001
1111110101111010
0000000100101101
1111111011001000
0000000001011011
0000000111011101
0000000110100001
0000000011100011
0000001010111111
0000000100101000
0000000110101010
0000000100110110
0000000110011011
0000000000010100
0000001100110000
0000001000001010
0000001001010101
0000001011100101
0000000111101001
0000000110001110
0000001011101101
0000010111110010
0000010110000111
0000000111010010
0000000010100101
1111111111011010
0000000010000110
0000001001100011
1111111100100010
0000000000111011
1111111111010101
1111111101111001
1111111100101100
1111111101101111
0000000111100110
0000001001001000
0000000111110001
1111110110111110
0000000110100100
0000001100000110
1111111101011111
0000000010111110
1111101001000010
1111101000111110
1111100111011000
1111111000101101
1111101010010000
1111101011001001
1111100000100010
1111110000001000
0000000011000100
0000000100100100
1111111101110111
1111111011100010
1111111010000011
0000000001100110
1111111011010100
0000001100100000
0000000000000000
0000000011010110
1111111011111011
1111111110100001
1111111100010000
0000000110000101
0000000110101101
0000000011110011
0000001010011001
0000001011000110
0000000100111001
0000001100011001
0000000010011010
0000000111010100
0000000111101111
1111111001000100
0000000111100010
1111111101111000
0000000110010101
0000000100000011
1111111010000110
0000000111011010
1111110110100101
1111111111000100
0000001010111010
0000000101010100
0000001101111101
0000001110100011
0000000010111101
0000001000100101
0000000110011111
0000010100000100
0000000011111000
0000000000000110
0000001000100001
0000000000010011
1111111100010000
0000000011101010
1111111101010100
0000000000000000
1111111011110101
1111111011110100
1111111110010011
1111111110001110
0000000100000100
0000000001110000
0000000100001101
0000000011010110
0000000000011011
0000000001010010
0000000001010010
1111111100000010
0000000000100111
0000000001100110
0000000110101001
0000001010110001
0000000001000001
1111111100001011
0000000011010000
1111111000100100
0000000011010101
0000000111010011
1111111100011001
1111111101101100
0000000001010101
1111111010100101
1111111101100001
1111111101011000
1111111111101100
0000000001101111
1111111101001010
0000000011101110
1111111110011101
1111111110100110
0000000011101000
1111111110010100
1111111100010111
1111111000000110
1111110100101010
1111111111111110
1111111010100010
1111111101100010
1111111001000100
1111111011000000
1111110111111011
1111110110111110
1111110011100010
1111111011001101
0000011000111111
0000010111011111
0000001101110001
0000010011000000
0000010010100110
0000010111010000
0000011000110110
0000011000000111
1111111011000101
1111111000101111
1111101110100101
1111111100011100
1111101101001010
1111110011001110
1111110001010111
1111101111111110
1111101110001101
1111111001010101
1111110010001100
1111110000011111
1111111100001001
0000000000000000
1111110110101101
1111111110000111
1111111111000101
0000000011000111
1111111111110001
1111111111100011
1111111000100110
0000000010111100
0000000101111011
0000000000111110
0000000001000110
1111111100100010
1111111011100010
1111110101011110
1111111001011001
1111111110100011
1111111111000111
1111111110001111
1111111000000101
0000000110111100
0000000100010101
0000000010001111
1111110011110110
1111111010010010
1111111001100011
0000000001100001
1111111110101100
1111111000101100
0000000010111011
1111111110111001
0000000010110110
0000001000110110
0000000101000100
0000000101100001
1111111001111100
0000000010011000
1111111110010011
1111111110011111
0000000000110100
1111111111000010
1111110111101111
1111110110001010
1111111001110011
1111111011100101
1111110110010100
1111111111111101
1111110100100000
1111110010111010
0000000000010001
1111110010010111
1111110011111100
1111111000101101
1111111001100000
0000000010111000
0000000010001010
0000000001000101
1111111001000010
1111111110010111
0000001011101011
1111111101000111
0000001001001001
1111111111011101
0000000001000000
0000001000110110
0000001001011001
0000001100110100
0000000000001101
0000000110001001
0000000001010011
0000001001001000
0000000100110111
1111111111001000
0000001001100010
0000000110010010
0000001001010000
0000001100111101
0000001001011000
0000000110101100
0000001001010011
0000001010001111
0000001010001111
0000000011000110
1111111101001001
0000000011001100
1111111100110111
0000001010111110
1111111101110011
0000000001110011
1111111110011010
0000000010100100
0000000110100101
0000000100011001
0000000101101111
0000001001001100
0000001100010101
0000000111101101
0000001111100101
0000010011001011
0000000111101000
0000001000111010
0000000001000011
0000000110100001
0000000111101011
0000000000100010
0000000111010011
0000000100110101
1111111100110101
1111110100111101
1111111001010001
1111110010001010
1111111010010101
1111111000101111
1111110001001000
1111101111110110
1111110101100110
0000000110001101
1111111111100011
0000000011100010
0000000000011111
0000000100100010
0000000110110110
0000000001001000
1111101101010110
1111111010101101
0000000000010010
1111110101010110
1111110011110000
1111110001101000
1111111010001001
1111111011100000
1111110101101101
1111111110010001
1111111010010100
0000000000110010
0000000001110100
0000001001100100
0000000101010010
0000000010010111
1111110011000011
1111110000101101
1111111000001010
1111111000000101
1111111011100100
0000000010111010
1111111010111000
1111111110110000
1111111110101110
0000000010011010
0000000011001011
1111111111111010
0000000101111100
0000000000100011
1111110111100000
1111110000101101
0000000001011001
1111111101010011
0000000010000111
0000001110010100
0000000010111111
0000000111010100
0000001001000001
0000000010101010
0000001000010010
0000000100001110
0000000001110010
1111111100111110
0000001010001000
0000001010101100
0000000100010101
0000000110111000
0000001100000100
0000000100101111
1111111101001011
0000000000100000
0000000010101000
0000000110100000
0000000100100111
0000000100001110
0000000011101000
0000001001110101
0000000000101000
0000000110110111
1111111101001100
0000000010011001
0000000001101000
1111111010011000
0000000010010010
0000000001100011
0000000000010110
1111110111111111
1111111000110101
1111111001001110
1111110011100001
1111110010101010
1111111000011100
1111111011010101
0000000010101111
1111111001100101
1111110110100110
1111110011100111
1111111110001010
0000000011101001
0000000010011000
0000000010110010
0000001010001100
1111111110011111
0000000010101100
0000000010111000
1111111101000000
0000000001011010
0000000011100100
1111111101101010
0000000100010111
0000000010100001
1111111110011101
0000001000100111
0000000001111111
0000001001000011
0000000010100110
0000000000000110
1111111100011011
1111111100101010
0000000000110101
0000000111000001
0000001010100011
0000001011001001
0000000001101110
0000000101101111
0000000011110000
0000000001001110
0000000011000100
0000000110100101
1111111110100011
0000000011010000
1111111101001000
0000000010111101
0000000101111010
1111111111000001
0000000011000100
0000000111001110
1111111110101000
0000000011000001
1111111100000000
1111111100011011
0000000011001011
0000000011011100
1111111100110111
1111110101011101
1111111010100001
1111111011111001
0000000000100101
1111111011000111
1111111111111011
1111111100011111
1111111000101000
1111110101101011
1111110101101001
1111111001110001
1111111011111101
1111111101001001
0000000011011000
0000001010100110
0000001000101100
0000001001010100
0000010001111010
0000001010111100
0000001010001110
0000010010111010
0000000001110110
0000001111001111
0000000111001000
0000000110110100
0000000011100101
0000000001110100
1111111011010111
1111111010101001
1111111001001110
1111111001001001
1111110111110001
1111111010001111
1111101111001100
1111110101101011
1111111000001100
0000000000100011
1111111110001101
0000000111100111
1111111111110000
1111110110110111
0000001001000000
0000000111101011
1111101110111111
1111111100111001
1111111100110001
1111110110111100
1111110100011111
1111110111001000
1111111010011001
1111110101011111
1111111000010010
0000000000001111
1111111010001000
0000000110100110
0000000000011110
0000001000110001
0000000011101000
1111111001001000
1111101101100000
1111110110101110
1111101111011000
1111111110100110
1111111101000100
0000000000011111
1111111001101101
1111110111101011
1111111101110101
1111111100100010
1111111011110010
1111110110110010
1111111010111001
1111111101011011
0000000001110001
1111111101100011
1111110111100000
1111110111001001
1111111011111010
1111111011100101
1111110111011101
1111111011001101
1111111110101111
1111111100010101
1111111101011111
1111110011010100
1111110011001001
1111110001011001
1111110110000101
1111110101010011
1111110010111010
1111110001101101
0000000110010110
0000000010011101
1111111011111111
0000000010000101
0000000010001110
0000001011000101
0000001011110100
0000001010000011
0000000011101100
0000001000110110
0000000000100100
0000000110110011
0000000011001011
0000000011011111
0000001000100111
0000001000101110
0000001000011010
0000001111001010
0000001001010101
0000001001000001
0000001110100010
0000001111011011
0000001011000010
0000000110001111
0000001010101001
0000000111110110
0000001010010001
0000000100100101
0000000101011100
0000000101010010
0000001010000101
0000000011101101
1111111101010010
0000001100000010
1111111010000110
0000000011001000
0000000010001100
0000000000100010
0000010101101010
1111101011100100
0000001110010100
0000001100000001
0000001110111110
1111011101000110
0000000100000100
1111111010010011
1111110101110000
0000000011100111
1111100111111001
0000000110111110
0000000111100110
1111111111000011
0000000101001111
0000000000111000
1111110100000101
0000000010100101
1111110001100001
0000001001111010
0000100100010100
1111011110001000
1111110110111111
0000000001000010
0000000100011011
0000001000001110
1111110110111111
0000010010001010
0000011000110010
1111110101000011
1111101100011110
0000000010010010
1111110010111010
0000000110010111
1111110110010100
0000010000110110
0000001110001110
1111110011110111
1111110000000111
0000100000100000
1111111101001100
1111110100011111
1111111010100100
1111110000110011
1111111010110001
1111111100000010
0000001101010000
1111110101101101
0000000100110010
0000001011110001
0000000001111010
1111111111011100
0000000010011111
0000001100010001
0000010011101000
0000001000100101
0000001110001001
0000001100011111
0000000101010011
0000000101110111
0000000001011100
0000001010101011
0000001000100001
0000001011010111
1111111110110111
0000001010011010
1111111101001000
0000000001011001
1111111001010100
1111110110000111
1111111000110011
1111111000110000
1111110010001000
1111110110101001
1111111100000111
1111111100111110
0000000001000111
0000001001011010
1111111111111100
0000000001001100
0000000110111111
0000001001011000
1111110011110010
1111111010011110
1111111011011010
1111111001100000
1111110100111110
1111111000100100
1111111000011000
1111111010111110
1111110101111010
0000000010101011
1111111001111000
0000000001001110
1111111100111000
0000000111110111
0000001010111010
0000000000000100
1111110001011011
1111110101011101
1111110011011011
1111111110100110
1111111100100101
0000000000000100
1111111110000101
1111111011010000
1111111110001110
1111111010111101
1111101011101011
1111111101101000
0000001101001001
0000001001001011
1111111000011100
0000010101001000
1111100110110110
1111110100100000
0000000110100101
0000010000001000
1111111110111000
0000000101011000
1111111000100110
1111111011100101
1111111001011111
1111110110111110
0000001011001010
0000000000001001
0000001100001001
0000000101110000
1111111010111101
0000001000111010
0000001010011011
0000000101011011
1111110100010101
1111111111101111
0000001001110000
1111101010010001
1111101100011100
0000000110000110
0000000110000010
1111111000110100
1111111111111001
0000001011110001
0000001100001001
0000010101011111
0000010010101000
1111111000101001
1111111011000101
0000000000010100
1111101101101011
0000001100011000
1111100111100100
0000000111111110
0000001010001000
1111110101001001
1111110010101100
0000000010101000
1111101100101010
0000000011101000
1111100111101001
1111111100010001
0000100010010010
0000010111101101
0000001101100101
0000001101111001
0000010100100000
0000001011001111
0000000110001111
1111111111111011
0000000010000111
0000010001111010
1111110111000101
1111110011101010
1111110100011001
1111110101011000
1111111110000110
1111101111110110
0000000001011100
1111110100110000
0000000110111011
0000001010100111
1111110111011001
0000000101011100
1111111001011000
0000000110000010
1111111001111001
0000000000001101
0000010101010011
0000001111101101
0000001001101001
0000010100111110
0000001011111011
0000011000100001
0000000110001010
0000010111010110
0000001011110011
0000000010000110
0000000100011110
0000000101100111
1111111111011110
1111111011111110
1111111100001011
1111111010011001
1111111101000010
1111111010001001
0000001011011000
0000000001001011
0000000110111011
1111110100011001
1111101110000110
0000000001011101
1111110100001111
1111110010111000
1111111100101011
1111111001110011
1111110000100010
1111110000101110
1111110100001100
1111110000001100
1111111110110000
1111111011100011
0000001010001110
0000001010101010
0000000100111100
1111111010100000
0000000101100110
0000001001111111
1111110101110011
1111110001010111
0000001101001011
1111111101111100
0000001101111011
0000000001110011
1111111101111101
1111111011000111
1111111001011111
1111110000111101
0000000000101100
1111101000100010
0000000001000111
1111101101001001
1111111000110000
1111110001001001
0000010011110001
0000001100011111
0000001101000101
0000010100111111
0000000011010011
0000010011010111
0000001000111101
0000010011101001
1111111101110010
0000001010011000
0000000000011100
0000010011001011
0000001000111010
1111111101010001
0000001010101111
0000000100101011
1111110101110110
1111101001010010
1111111110101011
0000000001111110
1111111110001011
1111101111100001
1111111010011011
0000000111010111
0000000101011001
0000000001101011
1111111101011101
1111111010011011
1111101110101110
1111101111001101
0000000001010111
1111110110110111
