1111111101100100
1111100101001100
1111110001011010
1111110111111110
1111101111110100
1111101110110110
1111110100100111
1111101111110100
1111110100001010
1111110101110111
1111110111001011
1111110101001001
1111110011000011
1111110101001111
1111101110011001
1111110011111001
1111101101001100
1111111000001100
1111110001001100
1111110111111000
1111110100100100
1111111001100110
1111110110010010
1111111010110011
0000000101110101
1111110001110100
1111101111000110
1111110100111000
1111110101001111
1111110110001000
1111110101110101
1111110010100110
1111101110011101
1111011111001000
1111110101101011
0000001011100100
1111101010000000
1111111001001000
1111110110100001
0000000101001010
1111110101000100
0000000010011101
1111110101110110
1111110101100110
1111111110111101
1111110101000110
1111110100111000
1111110101001100
1111110011100100
1111110101111001
