memory_initialization_radix=16;
memory_initialization_vector=
FF64,
F94C,
FC5A,
FDFE,
FBF4,
FBB6,
FD27,
FBF4,
FD0A,
FD77,
FDCB,
FD49,
FCC3,
FD4F,
FB99,
FCF9,
FB4C,
FE0C,
FC4C,
FDF8,
FD24,
FE66,
FD92,
FEB3,
0175,
FC74,
FBC6,
FD38,
FD4F,
FD88,
FD75,
FCA6,
FB9D,
F7C8,
FD6B,
02E4,
FA80,
FE48,
FDA1,
014A,
FD44,
009D,
FD76,
FD66,
FFBD,
FD46,
FD38,
FD4C,
FCE4,
FD79;
