memory_initialization_radix=16;
memory_initialization_vector=
004E557A,
00236CAD,
0001B052,
00640D38,
00D6D978,
FF0D6E65,
FF5E63A0,
005DC270,
FFE820E3,
00B12589,
007D5248,
FF48BED5,
00078D97,
0067ABEA,
FF2F6085,
0025D3D5,
FFB93832,
FFB827B8,
0061B458,
0075372D,
00A52D93,
008D6AA6,
FFAD7D95,
FF4B8C89,
005BACEC,
00A6A107,
FFC19752,
00949F12,
0071A422,
00F4EDF7,
FF5B6B04,
00737601,
FF2E965D,
FF86695E,
FF61CFD7,
000086D5,
FF0D564B,
0010FBD2,
FF4F48B5,
0010C374,
FF6AE1D8,
00044E71,
001D2319,
FF3DB4B4,
0034E286,
00905C97,
FF3D8E43,
006FB0D5,
00C99AA7,
00819BFA,
FFC095A3,
FF95FF2C,
000C01EC,
0040BBCC,
FF270F2D,
00B134AB,
007773C6,
FF982070,
004F3A75,
FFFA1028,
000DD637,
0019F9B3,
FFDF34B8,
002047F6,
00D966EB,
002AF9F6,
FFEE245B,
007E5BDA,
FFC66D0E,
005CCE02,
000195AD,
FFF3482C,
004E6B4E,
005933C4,
FFF5AF21,
FF575C8B,
002C31C6,
FFA1832C,
FF87A1F0,
FFAD8EB1,
005831C8,
FF81D872,
00CA5845,
FFFCD177,
006B346F,
FFFBEB52,
0098D551,
FFEAD304,
009BC992,
0026E3B9,
008A1CF5,
001DE3D1,
FFC2D24B,
00A5DECF,
FFE19028,
0039AB0E,
008107C2,
0057F48E,
FF5C4AE5,
FFAA0FC6,
00144FDA,
FFE19412,
0011E956,
FFFADD24,
FFEEBA70,
000AFC1F,
000098CC,
FFC96D36,
FFF72509,
FFD950EF,
FFF0228B,
001880D2,
0008B9CB,
00093749,
0026D5B3,
FFEAA298,
FFF4B350,
000395DD,
FFCE9348,
0019B9A3,
FFFD97AB,
0000F80E,
001CE717,
0011F960,
FFE191E0,
FFD45E72,
00032DBA,
000B6536,
000CAA56,
FFFD63C4,
000A7718,
00104603,
0007B5DE,
FFE4FA6B,
0019AB48,
00064265,
FFE91C4B,
FFDD97AA,
0011D0D6,
FFF54B72,
FFEF9BD4,
FFC8DE38,
FFE8B225,
00262D10,
FFF1B0D4,
FFFE3BEE,
FFF7EED8,
000DA57A,
FFF9C894,
FFE2D1C8,
003F6F91,
0104D798,
00DB00F0,
FE872932,
FFA41410,
006BD0A6,
00281BAB,
008ABA66,
FF0F6430,
FED18E4E,
FEC39A24,
00982B62,
00B6D08D,
FEB952CC,
0028F6C6,
00C20DDA,
00DD4C2F,
003F0D08,
007A0E49,
FEE8DFEC,
FEABEE14,
FEF555B2,
009A49BC,
0054878A,
001C5A05,
005DC99C,
00F35AE3,
FFF10B41,
0051134C,
FEDA0B0C,
008517BC,
00635D56,
0015E353,
0181A694,
FFFA2E85,
0011AD28,
00CF3C3F,
006C8ABA,
0064DBA4,
000F45CE,
002F0B38,
0071FB7A,
007E8748,
002AE9EF,
000EB06F,
FEABB33A,
0071A167,
FE6D0784,
FFD35CD0,
FF54B6F1,
00473EB0,
0062CB26,
00088BEB,
FFCD883E,
FFB90F3C,
003A971E,
004BC878,
0042431A,
FFDBED56,
FF9DBED6,
FFB9772A,
00373E8E,
0037049C,
FFC4127F,
008783D9,
0038C49B,
0046C4E6,
003A3C45,
0038F600,
FFB48B6C,
FF7A94A4,
FFD593EE,
0016A291,
003B0714,
0046E72E,
FFF9655D,
005D9584,
FFEE7EAB,
FFFF6968,
FF5F16B1,
003FDAB2,
001B06D2,
0063E719,
005EBE68,
00323C17,
004301CB,
00675CD4,
004B254C,
0060DE6C,
004B9938,
FFFF0C07,
003DC8F0,
0031EAAF,
005152A0,
005C65B6,
FFB43DCA,
00325748,
FF79937D,
0000C271,
FFFA74EB,
0047B8D2,
0073C718,
005E05FA,
FFDE9C35,
00247604,
FFE88083,
FFF5B5F0,
00523E40,
FFCE23F2,
FFFB9136,
FFB46288,
004E6145,
002853FC,
FFEE2D44,
FFE1D05E,
003568A6,
0051361E,
FFC03DF6,
004F41D2,
FFC47025,
FFD4D186,
00072360,
00223459,
FFEFF96D,
0021DA2F,
0062F5D6,
00A49220,
0055F7C0,
0042DD25,
FFF5C7DF,
FFBB5F10,
0045F2F0,
FFFDE449,
009AB07B,
FFB40257,
002A0E2B,
FFF67A9C,
0049B52A,
00004469,
FFF0DC1C,
001B3829,
FFDF9DE9,
00578E50,
FFDDC3E2,
00269ABE,
FFBA01E0,
002C13A9,
FFE93711,
0038241D,
FFDE664A,
FFAFAB32,
FEFC04D6,
FF9F46DE,
009A7432,
FF33BD5C,
007EB83A,
00AAA4BF,
FF49DBA1,
00763D08,
005FE88B,
00511E89,
004D8886,
FFB700FE,
0075FE7D,
00EED148,
FFB7FE5A,
FF890ED1,
008C7BFF,
FF8465B2,
00AF85BE,
00AE83E9,
FFF4612E,
00251098,
0038DE9C,
FFF5830B,
FEF1E0F6,
FFC538CE,
FF581215,
FF371C35,
005BDFC1,
003C0B7B,
FF72EB26,
00B6A5D3,
FF0E7C09,
00873921,
FFF74E48,
007368AB,
FFA33C6C,
00B1D8AE,
0004AF88,
00598110,
FFDC2F10,
FFD2E5D5,
00B8C633,
FFC42332,
00643CBA,
006CC988,
00BDA93D,
FF7A861D,
FFE2C9D6,
FFBA7C1E,
FF611298,
FFDDEF3B,
0073B214,
FF4986B9,
005271C8,
007F4CFA,
FF69B8D6,
00903E26,
00615B0E,
008F0FB1,
0047757E,
FFC864B6,
0079C30D,
00A8557B,
00102C74,
FFF44BB1,
003BE614,
FFB493A0,
009BE13F,
007D94CE,
002112CA,
00360017,
002507AF,
00012667,
FF7F939A,
00167655,
FFCFC776,
FF9973A2,
0023E2F0,
002D9E7A,
FFA5B124,
00874CBB,
FFCA6A13,
005D131E,
FFFBA30F,
0057CBFE,
FFD32E01,
0051F1A1,
0026EE05,
00559F1C,
FFEF98C8,
FFF33191,
005F57B6,
FFDCBD5C,
00646AEE,
007DE990,
006B6E4E,
FF552F52,
FFC77E2C,
FFD5FB1D,
004FD9A0,
002BD142,
FFE48C9B,
002CF040,
002B7095,
FFF068D9,
0029B224,
FFD48671,
FFE97DAE,
FFB43BE0,
00102E7D,
FFF407AB,
FFB2B36A,
0016C3BB,
0021B5CA,
FFFFB05B,
001D6AAC,
003DA450,
FFE2D65E,
FFE5B865,
FFFAAE2D,
0003C3BF,
FFFCD792,
00068A15,
001C851E,
0033CC3D,
FFD41D76,
00000BC8,
00245A06,
0011A3C6,
00274E3B,
0011A869,
0013A1EE,
0011C04C,
FFE35983,
00252B10,
00366F1F,
000510A9,
00061AEB,
00088A0A,
000A251C,
00194A64,
0017A566,
FFF3BC97,
FFB17E94,
002900DE,
000FC2C3,
00221E52,
FFC31C60,
00138CCB,
0042E8E0,
00326501,
FFFECD20,
00256969,
001BF269,
0018A628,
0032A718,
FFFAE40A,
00447779,
FFED1296,
002187E6,
FFFF4481,
0005630F,
FFE4BB2B,
00319E18,
000E9CE7,
0059620A,
00221E31,
0009A55C,
00190F6D,
0020FB27,
004036C0,
00227CFA,
0038B3F6,
001503D2,
001D67D2,
00191F83,
003163AA,
0034DAD7,
0030F63A,
000007C9,
004289DF,
00448E46,
0058E7B1,
00334C8E,
0012C3EF,
0030866A,
0047C56E,
005B0092,
000ADF17,
00313B55,
0001CFB7,
003FBF2E,
002EA69D,
002C5DB9,
001044F4,
FFF60332,
FFF7C813,
000D369C,
003BD41B,
00441A72,
00313208,
0032154E,
004A247A,
003354E7,
001A7526,
00511C02,
FFF1DD30,
0052D006,
000EC8BD,
0012EC32,
0026E887,
00361F3A,
0040318C,
004B8910,
FFEB8606,
004C0AE2,
003200B4,
0049EF39,
00543E7A,
0020283F,
002A1278,
0049BECC,
0059A159,
002CD1C8,
0019EBF0,
002CC948,
00004DF2,
0047E3A7,
0042CB20,
003A4B39,
00174A5E,
FFCF98F1,
00202D19,
0020FBA3,
0007A5A0,
0028ABF8,
000E797E,
0024B114,
0040A4E8,
005F93ED,
0014BF18,
0028B27A,
0020BF9A,
002767C7,
00433C59,
007F471A,
0013C33D,
0038E6DB,
00312638,
00F9107E,
00918257,
FEDBFF20,
FFCFDBC9,
005471AA,
002E2248,
007D99CE,
FF2BCE8C,
FEF3286C,
FECEBA68,
008EBFE1,
00AF86D2,
FEDB7FE0,
FFE409CA,
00AC8C14,
00C88B23,
000C5667,
00791852,
FEC3C724,
FEC4F374,
FEF42790,
009E39D7,
0036601A,
002AA552,
0087BD40,
00E4E11A,
00129E41,
00466B44,
FEF20044,
009675A0,
0068F344,
0012FF32,
01495AA8,
FFEC9268,
0022E11E,
009AC004,
009632D0,
001CED42,
00245044,
00237C51,
004A3E18,
00864716,
00345384,
001E0485,
FEFBD1AA,
006A2238,
FE98C396,
00128A6E,
FF3004D0,
0000EF20,
0029EDCA,
0018B1DD,
0009D35E,
004DC56B,
001E9300,
0025D01B,
002591AE,
001AC0FC,
001E097A,
000FD4B5,
00212BA0,
003CFA96,
003589FF,
FFF68307,
00391015,
002A411C,
00648E75,
0049864B,
002B83D1,
000C9C93,
00240FF4,
00409281,
003EF8A0,
0061697A,
00400EAC,
0023FC40,
001FBD7A,
0042DAAA,
0026B939,
00453E24,
001DDD98,
001BD08C,
FFFBBE58,
00231148,
0042D2C0,
00458096,
00254FBB,
00382BFC,
004EF536,
000A82B1,
006D8AA0,
003CAFBF,
00418C98,
002B1524,
0007CEE8,
001BF46C,
001ACCD4,
000DCF95,
0017C32E,
00CD9B19,
013FBB9C,
009DEE97,
FF5886CC,
012A6444,
FF3103C2,
FF582B68,
01235A82,
FF293D88,
FFCBEBCC,
FF5FDA38,
FF8D72EC,
00A44629,
FF73A813,
FF2BBEBE,
007AA1A8,
00BF188D,
FF9CC34C,
0102EE56,
FF622CA8,
FF96C7CE,
FFD176F1,
003ECAF8,
FFD43968,
006CB982,
01388770,
0053F8EC,
00F0F4CB,
00FEA586,
001D8BF8,
FFE4EF24,
0104EEF4,
FEE7D822,
0110A82C,
FF39FDCA,
0033F7B2,
FF86B3C1,
008DC8EE,
FF2BF92C,
00282AC5,
FF897A96,
007FDC78,
00A47F22,
FF3C4998,
005D0A1C,
FF8507BE,
FF66820D,
FF6F9619,
00DBD4B7,
00751830,
FFCD1B34,
FF246AB3,
FF352946,
0137B9CC,
00083778,
002606FF,
000A8154,
FF812C58,
00D7F06B,
00EEA69E,
0125A88E,
FFA0E19F,
FFA0BD0C,
010BC424,
00ACD004,
FFE2A63F,
FF8029E0,
0054F136,
FF795CF3,
012C9546,
01125EA2,
00E594A5,
FFA4C621,
FFF44ADF,
FFE2BDDE,
FF921524,
FF389D57,
002C2EF2,
FFBE6A0C,
012186D4,
FFBC57F6,
FF9FC1DE,
0056EA2E,
FEB79D14,
00579AF7,
FFDBF67A,
FFE38F76,
FF909DEA,
0017016C,
00086F39,
001513A3,
002285AA,
FFB322AD,
002ABAC2,
FFFCBDB8,
010BED2C,
001DF379,
013DB3B0,
FFFD19A1,
006A615E,
0005D68D,
FFC084A5,
FFDAC714,
00443C06,
000BBECE,
000C3722,
000C238F,
FFE6DEE3,
FFFA4AE5,
004CB158,
0020EAD6,
FFEBDF0B,
FFE85834,
001482A7,
002DDA60,
FFE2749C,
000FD46A,
00088D3A,
FFE783DA,
0052BC30,
006C7C2A,
0006215D,
FFFCFA9C,
0000CA9C,
FFEBA045,
FFCAC05D,
FFE793EE,
FFD4FB12,
FFF598AC,
007A6B4E,
FFCF6348,
000C71E3,
0019D22E,
FFAE4ADF,
000C2433,
FFDBA51B,
FFDAFED8,
000FBC60,
FFDAB87C,
FFD35F01,
FFF50E95,
00168DFD,
00067175,
001C7103,
FFDB7B99,
002ED18D,
000168D2,
008BAD97,
FFE35A31,
0013F84D,
0035EA89,
FFBA179E,
0018B660,
003DC6DA,
002BD004,
001ABD80,
002AA86B,
000022D3,
005433E0,
0078AEFA,
004FFEE6,
FFF49702,
000979EE,
004D63AA,
0059AE96,
FFD6FF5F,
FFE26A7D,
000B501C,
FFF078A5,
00768EBE,
00842CC2,
00518E78,
FFFB74CC,
001BCDD8,
00194636,
004D38F4,
00041233,
0042FA4A,
002EF5A4,
007C6C74,
FFE750A0,
0007D870,
00161BB4,
FF9E7B08,
0033FCDD,
001F3DF2,
FFCD9DE6,
FFFD5998,
00234A0A,
0034DFE4,
001D5A38,
0019628A,
FFF8801A,
001C6A15,
0020A775,
0043AD50,
FFE839E3,
00A81B7B,
0018715D,
00323500,
00339E2D,
FFEDAC66,
00035652,
006776B0,
00477AF8,
FFDAD067,
0032AF11,
001E324A,
0055C41A,
003DE28E,
0036104C,
001FE393,
00100B4C,
006740AE,
000B539E,
FFD5A82B,
FFD72D30,
002EC76D,
FFBBEC03,
008F3143,
005D4646,
002470D9,
0007A3DF,
0008691D,
00009EC7,
00439D6A,
FFED44C8,
000CDAC7,
002FD4D2,
00486E18,
FFFF3AE5,
FFFC20CB,
003D3968,
FFC5B1B0,
0013C2D6,
FFF1DD16,
00161712,
FFE45AC6,
0031E63B,
002DC00C,
00259C65,
001CD970,
000577FE,
0031B9F6,
00316C34,
004627F8,
001B479C,
0081CE46,
00358EB3,
0029E25C,
002CE9AC,
FFCF8402,
FFE0A10E,
0049927B,
003B1819,
FFEB97C0,
FFF1DA2A,
000498ED,
004139CA,
006A87A4,
007BCEBC,
FFF09A3F,
FFF1151D,
003EF6EA,
001BEA14,
FFCA896F,
FFF49D23,
0016DF5E,
0005626C,
0051572E,
0031C252,
00381B5B,
FFF19574,
000171C9,
00036B43,
0076EEA3,
FF93F1CA,
0038CD5C,
00502744,
004FA1BF,
000F66E8,
001484FC,
002AA533,
FFC59529,
0005DAF5,
000E84A2,
FFE7A6DE,
FFE15F71,
00159804,
002AAD6A,
00105A60,
00289998,
0010D036,
0021B2BC,
003DB7F7,
005863F8,
FFF922A3,
00423A73,
0004DA97,
002A6B4E,
0073EB14,
00C0D4BE,
004BE31D,
0048B321,
018317C4,
FE9EC5EE,
FECFFC92,
00E9AAA1,
FF93995C,
00C056E8,
00486EF6,
FEE90F3A,
00184F1E,
0063A91E,
FE5E84A8,
FFF1705A,
0011008C,
FF20430A,
00B6BF7C,
00403FD9,
00A28D69,
009AA98F,
FF53542B,
FEED6AE4,
0059FBBC,
0100FF2E,
FF763DF0,
0114E78E,
00EA79AB,
010638EC,
FF09CA60,
00BA55FB,
FE85EA16,
FF0F3B6A,
FEE9452C,
004C556C,
FE690D5C,
001524B7,
FEA9ED3C,
0019B941,
FF14088C,
00550BC8,
00734878,
FEFDF412,
0042CCCA,
008F7C70,
FEF87A76,
0031FC24,
0113EA2E,
010166B6;
