memory_initialization_radix=16;
memory_initialization_vector=
FC0C,
00C0,
FF82,
07F4,
02D2,
0017,
007E,
00E1,
00E7,
02A2,
025B,
0B9C,
01E9,
048F,
FDC4,
FF61,
FCC2,
FE52,
FDCB,
FAE2,
0078,
02A4,
FF15,
FA46,
FF6E,
FD66,
02AA,
0339,
0018,
0147,
0193,
F4AF,
0138,
FFEA,
036A,
0150,
FE54,
FF1A,
0030,
FA5D,
04A6,
FF00,
FF62,
F9B3,
FEC5,
FFA6,
FE2F,
01B4,
FFF9,
00FE,
01BA,
FCA2,
FF71,
04EB,
0254,
00B1,
FD85,
FE94,
FFD8,
038A;
